
#ifdef __has_attribute
#define HAVE_ATTRIBUTE(x) __has_attribute(x)
#else
#define HAVE_ATTRIBUTE(x) 0
#endif
#if HAVE_ATTRIBUTE(aligned) || (defined(__GNUC__) && !defined(__clang__))
#define DATA_ALIGN_ATTRIBUTE __attribute__((aligned(4)))
#else
#define DATA_ALIGN_ATTRIBUTE
#endif
const unsigned char model_data[] DATA_ALIGN_ATTRIBUTE = {
	0x08, 0x00, 0x00, 0x00, 0x54, 0x46, 0x4c, 0x33, 0x96, 0xfc, 0xff, 0xff, 
	0x03, 0x00, 0x00, 0x00, 0x58, 0x06, 0x00, 0x00, 0x54, 0x03, 0x00, 0x00, 
	0x3c, 0x03, 0x00, 0x00, 0x04, 0x00, 0x00, 0x00, 0x08, 0x00, 0x00, 0x00, 
	0x2c, 0x03, 0x00, 0x00, 0x24, 0x03, 0x00, 0x00, 0xd4, 0x02, 0x00, 0x00, 
	0xb4, 0x02, 0x00, 0x00, 0xa4, 0x00, 0x00, 0x00, 0x14, 0x00, 0x00, 0x00, 
	0x0c, 0x00, 0x00, 0x00, 0x04, 0x00, 0x00, 0x00, 0x04, 0xfa, 0xff, 0xff, 
	0x08, 0xfa, 0xff, 0xff, 0x52, 0xfd, 0xff, 0xff, 0x04, 0x00, 0x00, 0x00, 
	0x80, 0x00, 0x00, 0x00, 0x6e, 0x79, 0xba, 0xbe, 0xd6, 0x43, 0x95, 0xbd, 
	0xf2, 0x1b, 0x19, 0xbe, 0xd3, 0xb9, 0x84, 0xbe, 0x1f, 0x89, 0x9a, 0xbe, 
	0x3f, 0x87, 0x80, 0xbe, 0x5c, 0xc1, 0x97, 0x3e, 0xf1, 0x17, 0x99, 0xbe, 
	0x3e, 0x36, 0x82, 0x3e, 0x00, 0xf4, 0xe0, 0x3a, 0xfc, 0x53, 0x95, 0xbe, 
	0xc4, 0xbd, 0xf1, 0x3e, 0x02, 0x4c, 0xc9, 0xbe, 0x12, 0x4a, 0xbc, 0x3e, 
	0x7e, 0xbc, 0xbc, 0xbe, 0x80, 0xe6, 0x22, 0x3c, 0x11, 0xd7, 0x9c, 0xbe, 
	0x1e, 0xca, 0x34, 0x3e, 0x10, 0x41, 0x30, 0xbd, 0xa0, 0x43, 0xeb, 0x3e, 
	0x40, 0x55, 0x4c, 0x3d, 0x32, 0x5e, 0x12, 0xbf, 0x18, 0xe2, 0xea, 0x3e, 
	0xaa, 0x4a, 0x69, 0x3d, 0x9e, 0xc8, 0x2d, 0x3e, 0xb6, 0x50, 0x87, 0x3e, 
	0x92, 0x7b, 0xfd, 0xbe, 0x28, 0x88, 0x2b, 0xbe, 0x2e, 0xfa, 0x8e, 0x3e, 
	0xe4, 0x4b, 0xfb, 0x3d, 0x8c, 0x8e, 0xc9, 0x3e, 0xc0, 0xff, 0x20, 0xbd, 
	0xde, 0xfd, 0xff, 0xff, 0x04, 0x00, 0x00, 0x00, 0x00, 0x02, 0x00, 0x00, 
	0x64, 0x15, 0xa7, 0xbe, 0x18, 0xd7, 0x7d, 0x3e, 0xc0, 0x87, 0x86, 0xbd, 
	0x78, 0x7b, 0xe8, 0x3e, 0x00, 0x50, 0x4d, 0x3c, 0xe0, 0x0a, 0xd9, 0xbe, 
	0x48, 0x9e, 0x65, 0x3e, 0xc0, 0xa7, 0x6f, 0xbe, 0x70, 0x29, 0x93, 0xbe, 
	0x74, 0xb4, 0x85, 0xbe, 0xb8, 0xf2, 0xad, 0x3e, 0x1c, 0xe0, 0xbd, 0x3e, 
	0xf8, 0x52, 0xd3, 0x3e, 0x90, 0x04, 0xd3, 0x3e, 0x98, 0xd3, 0x9c, 0x3e, 
	0x10, 0x29, 0x51, 0xbe, 0x80, 0x42, 0xff, 0x3d, 0x70, 0x57, 0x24, 0xbe, 
	0xcc, 0x4f, 0xef, 0xbe, 0xc8, 0xa9, 0x13, 0xbe, 0x60, 0x96, 0x06, 0xbd, 
	0x9c, 0x79, 0xb1, 0xbe, 0x60, 0x68, 0xc1, 0x3e, 0xd8, 0xb9, 0xb9, 0x3e, 
	0x58, 0xbf, 0xf1, 0xbe, 0xa0, 0x53, 0x40, 0x3e, 0x0c, 0x64, 0xc4, 0x3e, 
	0xb8, 0x1e, 0x10, 0xbe, 0xa0, 0xaf, 0x9c, 0xbd, 0xa0, 0xd2, 0xad, 0x3d, 
	0x50, 0x07, 0x04, 0x3e, 0x90, 0xcd, 0xbb, 0x3e, 0x8c, 0xca, 0xed, 0x3e, 
	0x04, 0xc9, 0xf6, 0x3e, 0x70, 0xdc, 0xd2, 0xbe, 0xd4, 0xda, 0xf3, 0x3e, 
	0x94, 0xfb, 0xe2, 0x3e, 0x90, 0x25, 0x92, 0xbd, 0x40, 0x20, 0x8d, 0x3e, 
	0x00, 0x50, 0xb2, 0xb9, 0x28, 0x63, 0xea, 0xbe, 0x3c, 0xfb, 0xd7, 0xbe, 
	0x30, 0x93, 0x19, 0xbe, 0x54, 0x0f, 0xe0, 0x3e, 0xc0, 0xdf, 0x35, 0x3e, 
	0x30, 0xf8, 0x82, 0xbd, 0xe4, 0x13, 0xb2, 0x3e, 0x04, 0xe7, 0xb7, 0xbe, 
	0xb8, 0x0d, 0xcc, 0xbe, 0xb4, 0xca, 0xe6, 0xbe, 0x2c, 0xe7, 0x9f, 0x3e, 
	0x54, 0x89, 0xa9, 0x3e, 0xe0, 0xad, 0xed, 0x3d, 0xcc, 0xd7, 0x97, 0xbe, 
	0x30, 0xd5, 0xe5, 0xbe, 0xe0, 0xf0, 0x91, 0xbe, 0x60, 0xff, 0x91, 0x3e, 
	0x20, 0xa8, 0xcb, 0x3d, 0x46, 0x26, 0x34, 0x3e, 0x08, 0x2d, 0xc3, 0x3e, 
	0x94, 0x94, 0x8e, 0x3e, 0x90, 0xa2, 0x6d, 0x3e, 0x10, 0x71, 0xab, 0x3d, 
	0x7c, 0x87, 0xdb, 0x3e, 0xb8, 0x9c, 0xe2, 0x3e, 0xc0, 0x5f, 0xc3, 0x3c, 
	0x6e, 0x15, 0x14, 0x3e, 0x14, 0x4e, 0x96, 0xbe, 0xf4, 0xd0, 0xa3, 0x3e, 
	0x48, 0x82, 0x1e, 0xbe, 0xec, 0xf1, 0xa5, 0xbe, 0x5c, 0x25, 0xf0, 0xbe, 
	0x28, 0xb7, 0xca, 0x3e, 0x18, 0x05, 0x15, 0x3e, 0x90, 0xe6, 0xc1, 0xbe, 
	0x1c, 0x82, 0xce, 0xbe, 0x28, 0x31, 0x28, 0x3e, 0x04, 0x0c, 0xb6, 0xbe, 
	0xac, 0x83, 0x95, 0xbe, 0x88, 0x32, 0xa5, 0xbe, 0xc0, 0xac, 0xc6, 0x3c, 
	0xa0, 0xe5, 0x2d, 0x3e, 0x40, 0xf2, 0x2b, 0xbd, 0x7c, 0x18, 0xbb, 0xbe, 
	0xc0, 0x74, 0x80, 0x3d, 0xdc, 0x7f, 0xa6, 0xbe, 0xc0, 0xa8, 0xdc, 0x3c, 
	0xa0, 0x0d, 0x44, 0xbd, 0x14, 0xe6, 0x91, 0x3e, 0xa8, 0xa8, 0x5f, 0xbe, 
	0x18, 0xa7, 0xdd, 0x3e, 0x28, 0x65, 0x25, 0x3e, 0x50, 0x9f, 0xae, 0x3d, 
	0xa0, 0x60, 0x2a, 0xbe, 0x8c, 0xe6, 0xbe, 0x3e, 0xb8, 0xf1, 0x00, 0xbe, 
	0xdc, 0x95, 0xbd, 0x3e, 0x18, 0x70, 0x14, 0x3e, 0x2e, 0xdc, 0x67, 0x3e, 
	0x08, 0x96, 0x32, 0xbe, 0xb0, 0x19, 0x6d, 0x3e, 0x10, 0x91, 0x3a, 0x3e, 
	0x50, 0x40, 0xcf, 0x3e, 0x64, 0x82, 0xc9, 0xbe, 0xc4, 0x91, 0xbe, 0x3e, 
	0x3c, 0x13, 0x8f, 0x3e, 0x58, 0x90, 0xdc, 0x3e, 0xf0, 0x99, 0xfd, 0xbd, 
	0xe8, 0x9d, 0x1e, 0x3e, 0x88, 0x44, 0xee, 0xbe, 0xd0, 0xa4, 0x1e, 0xbe, 
	0x38, 0x70, 0x94, 0x3e, 0xce, 0x88, 0x4b, 0x3e, 0xb4, 0xc8, 0xc5, 0xbe, 
	0x5c, 0x25, 0xb5, 0x3e, 0x50, 0xf2, 0x61, 0xbe, 0x14, 0xb7, 0xf4, 0x3e, 
	0xb0, 0xcf, 0x04, 0x3e, 0x04, 0x42, 0x9a, 0xbe, 0x90, 0x0d, 0xd4, 0xbe, 
	0x78, 0xe1, 0x81, 0x3e, 0x40, 0x42, 0xdd, 0x3e, 0x20, 0x46, 0xb6, 0xbe, 
	0x58, 0x30, 0xc3, 0x3e, 0xc8, 0x1b, 0x1b, 0xbe, 0x00, 0xc6, 0xd3, 0x3b, 
	0xfc, 0x1c, 0x92, 0xbe, 0xa0, 0x75, 0x93, 0x3d, 0xea, 0xff, 0xff, 0xff, 
	0x04, 0x00, 0x00, 0x00, 0x08, 0x00, 0x00, 0x00, 0x1d, 0x3e, 0xcf, 0x3b, 
	0x34, 0x3e, 0xcf, 0xbb, 0x00, 0x00, 0x06, 0x00, 0x08, 0x00, 0x04, 0x00, 
	0x06, 0x00, 0x00, 0x00, 0x04, 0x00, 0x00, 0x00, 0x40, 0x00, 0x00, 0x00, 
	0x00, 0x00, 0x00, 0x00, 0x2c, 0x3e, 0xcf, 0xbb, 0x00, 0x00, 0x00, 0x00, 
	0x34, 0x3e, 0xcf, 0xbb, 0x00, 0x00, 0x00, 0x00, 0x00, 0x00, 0x00, 0x00, 
	0x32, 0x3e, 0xcf, 0xbb, 0x1e, 0x3e, 0xcf, 0xbb, 0x28, 0x3e, 0xcf, 0xbb, 
	0x00, 0x00, 0x00, 0x00, 0x00, 0x00, 0x00, 0x00, 0x2c, 0x3e, 0xcf, 0x3b, 
	0x30, 0x3e, 0xcf, 0xbb, 0x22, 0x3e, 0xcf, 0xbb, 0x32, 0x3e, 0xcf, 0xbb, 
	0x00, 0x00, 0x00, 0x00, 0x0c, 0xfd, 0xff, 0xff, 0x10, 0xfd, 0xff, 0xff, 
	0x0f, 0x00, 0x00, 0x00, 0x4d, 0x4c, 0x49, 0x52, 0x20, 0x43, 0x6f, 0x6e, 
	0x76, 0x65, 0x72, 0x74, 0x65, 0x64, 0x2e, 0x00, 0x01, 0x00, 0x00, 0x00, 
	0x14, 0x00, 0x00, 0x00, 0x00, 0x00, 0x0e, 0x00, 0x18, 0x00, 0x04, 0x00, 
	0x08, 0x00, 0x0c, 0x00, 0x10, 0x00, 0x14, 0x00, 0x0e, 0x00, 0x00, 0x00, 
	0xc8, 0x00, 0x00, 0x00, 0xbc, 0x00, 0x00, 0x00, 0xb0, 0x00, 0x00, 0x00, 
	0x14, 0x00, 0x00, 0x00, 0x04, 0x00, 0x00, 0x00, 0x04, 0x00, 0x00, 0x00, 
	0x6d, 0x61, 0x69, 0x6e, 0x00, 0x00, 0x00, 0x00, 0x02, 0x00, 0x00, 0x00, 
	0x58, 0x00, 0x00, 0x00, 0x14, 0x00, 0x00, 0x00, 0x00, 0x00, 0x0e, 0x00, 
	0x14, 0x00, 0x00, 0x00, 0x08, 0x00, 0x0c, 0x00, 0x07, 0x00, 0x10, 0x00, 
	0x0e, 0x00, 0x00, 0x00, 0x00, 0x00, 0x00, 0x08, 0x18, 0x00, 0x00, 0x00, 
	0x0c, 0x00, 0x00, 0x00, 0x04, 0x00, 0x00, 0x00, 0x94, 0xfd, 0xff, 0xff, 
	0x01, 0x00, 0x00, 0x00, 0x06, 0x00, 0x00, 0x00, 0x03, 0x00, 0x00, 0x00, 
	0x05, 0x00, 0x00, 0x00, 0x04, 0x00, 0x00, 0x00, 0x02, 0x00, 0x00, 0x00, 
	0x00, 0x00, 0x0e, 0x00, 0x16, 0x00, 0x00, 0x00, 0x08, 0x00, 0x0c, 0x00, 
	0x07, 0x00, 0x10, 0x00, 0x0e, 0x00, 0x00, 0x00, 0x00, 0x00, 0x00, 0x08, 
	0x24, 0x00, 0x00, 0x00, 0x18, 0x00, 0x00, 0x00, 0x0c, 0x00, 0x00, 0x00, 
	0x00, 0x00, 0x06, 0x00, 0x08, 0x00, 0x07, 0x00, 0x06, 0x00, 0x00, 0x00, 
	0x00, 0x00, 0x00, 0x01, 0x01, 0x00, 0x00, 0x00, 0x05, 0x00, 0x00, 0x00, 
	0x03, 0x00, 0x00, 0x00, 0x00, 0x00, 0x00, 0x00, 0x03, 0x00, 0x00, 0x00, 
	0x01, 0x00, 0x00, 0x00, 0x01, 0x00, 0x00, 0x00, 0x06, 0x00, 0x00, 0x00, 
	0x01, 0x00, 0x00, 0x00, 0x00, 0x00, 0x00, 0x00, 0x07, 0x00, 0x00, 0x00, 
	0xdc, 0x01, 0x00, 0x00, 0x74, 0x01, 0x00, 0x00, 0x1c, 0x01, 0x00, 0x00, 
	0xd0, 0x00, 0x00, 0x00, 0x84, 0x00, 0x00, 0x00, 0x3c, 0x00, 0x00, 0x00, 
	0x04, 0x00, 0x00, 0x00, 0x4e, 0xfe, 0xff, 0xff, 0x24, 0x00, 0x00, 0x00, 
	0x07, 0x00, 0x00, 0x00, 0x0c, 0x00, 0x00, 0x00, 0x04, 0x00, 0x00, 0x00, 
	0x40, 0xfe, 0xff, 0xff, 0x08, 0x00, 0x00, 0x00, 0x49, 0x64, 0x65, 0x6e, 
	0x74, 0x69, 0x74, 0x79, 0x00, 0x00, 0x00, 0x00, 0x02, 0x00, 0x00, 0x00, 
	0x01, 0x00, 0x00, 0x00, 0x02, 0x00, 0x00, 0x00, 0x82, 0xfe, 0xff, 0xff, 
	0x34, 0x00, 0x00, 0x00, 0x06, 0x00, 0x00, 0x00, 0x0c, 0x00, 0x00, 0x00, 
	0x04, 0x00, 0x00, 0x00, 0x74, 0xfe, 0xff, 0xff, 0x1a, 0x00, 0x00, 0x00, 
	0x73, 0x65, 0x71, 0x75, 0x65, 0x6e, 0x74, 0x69, 0x61, 0x6c, 0x5f, 0x35, 
	0x2f, 0x64, 0x65, 0x6e, 0x73, 0x65, 0x5f, 0x31, 0x30, 0x2f, 0x52, 0x65, 
	0x6c, 0x75, 0x00, 0x00, 0x02, 0x00, 0x00, 0x00, 0x01, 0x00, 0x00, 0x00, 
	0x10, 0x00, 0x00, 0x00, 0xc6, 0xfe, 0xff, 0xff, 0x38, 0x00, 0x00, 0x00, 
	0x05, 0x00, 0x00, 0x00, 0x0c, 0x00, 0x00, 0x00, 0x04, 0x00, 0x00, 0x00, 
	0xb8, 0xfe, 0xff, 0xff, 0x1c, 0x00, 0x00, 0x00, 0x73, 0x65, 0x71, 0x75, 
	0x65, 0x6e, 0x74, 0x69, 0x61, 0x6c, 0x5f, 0x35, 0x2f, 0x64, 0x65, 0x6e, 
	0x73, 0x65, 0x5f, 0x31, 0x31, 0x2f, 0x4d, 0x61, 0x74, 0x4d, 0x75, 0x6c, 
	0x00, 0x00, 0x00, 0x00, 0x02, 0x00, 0x00, 0x00, 0x02, 0x00, 0x00, 0x00, 
	0x10, 0x00, 0x00, 0x00, 0x0e, 0xff, 0xff, 0xff, 0x38, 0x00, 0x00, 0x00, 
	0x04, 0x00, 0x00, 0x00, 0x0c, 0x00, 0x00, 0x00, 0x04, 0x00, 0x00, 0x00, 
	0x00, 0xff, 0xff, 0xff, 0x1c, 0x00, 0x00, 0x00, 0x73, 0x65, 0x71, 0x75, 
	0x65, 0x6e, 0x74, 0x69, 0x61, 0x6c, 0x5f, 0x35, 0x2f, 0x64, 0x65, 0x6e, 
	0x73, 0x65, 0x5f, 0x31, 0x30, 0x2f, 0x4d, 0x61, 0x74, 0x4d, 0x75, 0x6c, 
	0x00, 0x00, 0x00, 0x00, 0x02, 0x00, 0x00, 0x00, 0x10, 0x00, 0x00, 0x00, 
	0x08, 0x00, 0x00, 0x00, 0x56, 0xff, 0xff, 0xff, 0x48, 0x00, 0x00, 0x00, 
	0x03, 0x00, 0x00, 0x00, 0x0c, 0x00, 0x00, 0x00, 0x04, 0x00, 0x00, 0x00, 
	0x48, 0xff, 0xff, 0xff, 0x2c, 0x00, 0x00, 0x00, 0x73, 0x65, 0x71, 0x75, 
	0x65, 0x6e, 0x74, 0x69, 0x61, 0x6c, 0x5f, 0x35, 0x2f, 0x64, 0x65, 0x6e, 
	0x73, 0x65, 0x5f, 0x31, 0x31, 0x2f, 0x42, 0x69, 0x61, 0x73, 0x41, 0x64, 
	0x64, 0x2f, 0x52, 0x65, 0x61, 0x64, 0x56, 0x61, 0x72, 0x69, 0x61, 0x62, 
	0x6c, 0x65, 0x4f, 0x70, 0x00, 0x00, 0x00, 0x00, 0x01, 0x00, 0x00, 0x00, 
	0x02, 0x00, 0x00, 0x00, 0xaa, 0xff, 0xff, 0xff, 0x48, 0x00, 0x00, 0x00, 
	0x02, 0x00, 0x00, 0x00, 0x0c, 0x00, 0x00, 0x00, 0x04, 0x00, 0x00, 0x00, 
	0x9c, 0xff, 0xff, 0xff, 0x2c, 0x00, 0x00, 0x00, 0x73, 0x65, 0x71, 0x75, 
	0x65, 0x6e, 0x74, 0x69, 0x61, 0x6c, 0x5f, 0x35, 0x2f, 0x64, 0x65, 0x6e, 
	0x73, 0x65, 0x5f, 0x31, 0x30, 0x2f, 0x42, 0x69, 0x61, 0x73, 0x41, 0x64, 
	0x64, 0x2f, 0x52, 0x65, 0x61, 0x64, 0x56, 0x61, 0x72, 0x69, 0x61, 0x62, 
	0x6c, 0x65, 0x4f, 0x70, 0x00, 0x00, 0x00, 0x00, 0x01, 0x00, 0x00, 0x00, 
	0x10, 0x00, 0x00, 0x00, 0x00, 0x00, 0x0e, 0x00, 0x14, 0x00, 0x04, 0x00, 
	0x00, 0x00, 0x08, 0x00, 0x0c, 0x00, 0x10, 0x00, 0x0e, 0x00, 0x00, 0x00, 
	0x2c, 0x00, 0x00, 0x00, 0x01, 0x00, 0x00, 0x00, 0x10, 0x00, 0x00, 0x00, 
	0x08, 0x00, 0x00, 0x00, 0x04, 0x00, 0x04, 0x00, 0x04, 0x00, 0x00, 0x00, 
	0x0e, 0x00, 0x00, 0x00, 0x64, 0x65, 0x6e, 0x73, 0x65, 0x5f, 0x31, 0x30, 
	0x5f, 0x69, 0x6e, 0x70, 0x75, 0x74, 0x00, 0x00, 0x02, 0x00, 0x00, 0x00, 
	0x01, 0x00, 0x00, 0x00, 0x08, 0x00, 0x00, 0x00, 0x01, 0x00, 0x00, 0x00, 
	0x10, 0x00, 0x00, 0x00, 0x00, 0x00, 0x0a, 0x00, 0x0c, 0x00, 0x07, 0x00, 
	0x00, 0x00, 0x08, 0x00, 0x0a, 0x00, 0x00, 0x00, 0x00, 0x00, 0x00, 0x09, 
	0x03, 0x00, 0x00, 0x00
};
const int model_data_len = 1672;